ff
08
fb
f9
f3
fb
06
01
06
ed
ee
f9
f1
e2
03
ef
fb
fd
21
03
08
08
15
06
f2
08
03
f7
e7
ea
02
f0
fa
ec
e9
ff
ea
d5
d9
d7
c0
dd
d4
e7
13
eb
fc
fe
04
fc
ef
fa
fb
f3
11
03
fe
13
0d
14
08
0b
fb
01
15
1c
10
06
0d
12
02
10
0e
eb
f6
fa
dd
ee
dd
f5
f6
08
f8
09
fe
ff
11
f1
08
0e
16
01
f7
d9
bc
f4
d5
dc
07
f6
fb
f6
f5
f5
ff
10
11
0a
1e
25
2a
1a
13
0f
01
0d
ff
f8
fc
ff
fa
06
ea
f6
01
f9
ed
0a
fe
03
ff
12
fd
04
17
0e
0e
06
08
0f
fd
07
02
0e
